unsigned char temperature_prediction_tflite[] = {
  0x1c, 0x00, 0x00, 0x00, 0x54, 0x46, 0x4c, 0x33, 0x14, 0x00, 0x20, 0x00,
  0x1c, 0x00, 0x18, 0x00, 0x14, 0x00, 0x10, 0x00, 0x0c, 0x00, 0x00, 0x00,
  0x08, 0x00, 0x04, 0x00, 0x14, 0x00, 0x00, 0x00, 0x1c, 0x00, 0x00, 0x00,
  0x88, 0x00, 0x00, 0x00, 0xe0, 0x00, 0x00, 0x00, 0x4c, 0x06, 0x00, 0x00,
  0x5c, 0x06, 0x00, 0x00, 0xf0, 0x0b, 0x00, 0x00, 0x03, 0x00, 0x00, 0x00,
  0x01, 0x00, 0x00, 0x00, 0x04, 0x00, 0x00, 0x00, 0x66, 0xf9, 0xff, 0xff,
  0x0c, 0x00, 0x00, 0x00, 0x1c, 0x00, 0x00, 0x00, 0x3c, 0x00, 0x00, 0x00,
  0x0f, 0x00, 0x00, 0x00, 0x73, 0x65, 0x72, 0x76, 0x69, 0x6e, 0x67, 0x5f,
  0x64, 0x65, 0x66, 0x61, 0x75, 0x6c, 0x74, 0x00, 0x01, 0x00, 0x00, 0x00,
  0x04, 0x00, 0x00, 0x00, 0x94, 0xff, 0xff, 0xff, 0x0a, 0x00, 0x00, 0x00,
  0x04, 0x00, 0x00, 0x00, 0x08, 0x00, 0x00, 0x00, 0x6f, 0x75, 0x74, 0x70,
  0x75, 0x74, 0x5f, 0x30, 0x00, 0x00, 0x00, 0x00, 0x01, 0x00, 0x00, 0x00,
  0x04, 0x00, 0x00, 0x00, 0x56, 0xfa, 0xff, 0xff, 0x04, 0x00, 0x00, 0x00,
  0x0b, 0x00, 0x00, 0x00, 0x69, 0x6e, 0x70, 0x75, 0x74, 0x5f, 0x6c, 0x61,
  0x79, 0x65, 0x72, 0x00, 0x02, 0x00, 0x00, 0x00, 0x34, 0x00, 0x00, 0x00,
  0x04, 0x00, 0x00, 0x00, 0xdc, 0xff, 0xff, 0xff, 0x0d, 0x00, 0x00, 0x00,
  0x04, 0x00, 0x00, 0x00, 0x13, 0x00, 0x00, 0x00, 0x43, 0x4f, 0x4e, 0x56,
  0x45, 0x52, 0x53, 0x49, 0x4f, 0x4e, 0x5f, 0x4d, 0x45, 0x54, 0x41, 0x44,
  0x41, 0x54, 0x41, 0x00, 0x08, 0x00, 0x0c, 0x00, 0x08, 0x00, 0x04, 0x00,
  0x08, 0x00, 0x00, 0x00, 0x0c, 0x00, 0x00, 0x00, 0x04, 0x00, 0x00, 0x00,
  0x13, 0x00, 0x00, 0x00, 0x6d, 0x69, 0x6e, 0x5f, 0x72, 0x75, 0x6e, 0x74,
  0x69, 0x6d, 0x65, 0x5f, 0x76, 0x65, 0x72, 0x73, 0x69, 0x6f, 0x6e, 0x00,
  0x0e, 0x00, 0x00, 0x00, 0x68, 0x05, 0x00, 0x00, 0x60, 0x05, 0x00, 0x00,
  0x30, 0x05, 0x00, 0x00, 0x18, 0x03, 0x00, 0x00, 0x04, 0x03, 0x00, 0x00,
  0xd4, 0x02, 0x00, 0x00, 0x84, 0x02, 0x00, 0x00, 0xb4, 0x00, 0x00, 0x00,
  0xac, 0x00, 0x00, 0x00, 0xa4, 0x00, 0x00, 0x00, 0x9c, 0x00, 0x00, 0x00,
  0x94, 0x00, 0x00, 0x00, 0x74, 0x00, 0x00, 0x00, 0x04, 0x00, 0x00, 0x00,
  0x06, 0xfb, 0xff, 0xff, 0x04, 0x00, 0x00, 0x00, 0x60, 0x00, 0x00, 0x00,
  0x10, 0x00, 0x00, 0x00, 0x00, 0x00, 0x00, 0x00, 0x08, 0x00, 0x0e, 0x00,
  0x08, 0x00, 0x04, 0x00, 0x08, 0x00, 0x00, 0x00, 0x10, 0x00, 0x00, 0x00,
  0x24, 0x00, 0x00, 0x00, 0x00, 0x00, 0x06, 0x00, 0x08, 0x00, 0x04, 0x00,
  0x06, 0x00, 0x00, 0x00, 0x04, 0x00, 0x00, 0x00, 0x00, 0x00, 0x00, 0x00,
  0x0c, 0x00, 0x18, 0x00, 0x14, 0x00, 0x10, 0x00, 0x0c, 0x00, 0x04, 0x00,
  0x0c, 0x00, 0x00, 0x00, 0x14, 0xa7, 0x19, 0x14, 0x89, 0x5c, 0x17, 0x21,
  0x02, 0x00, 0x00, 0x00, 0x02, 0x00, 0x00, 0x00, 0x04, 0x00, 0x00, 0x00,
  0x06, 0x00, 0x00, 0x00, 0x32, 0x2e, 0x31, 0x39, 0x2e, 0x30, 0x00, 0x00,
  0x72, 0xfb, 0xff, 0xff, 0x04, 0x00, 0x00, 0x00, 0x10, 0x00, 0x00, 0x00,
  0x31, 0x2e, 0x31, 0x34, 0x2e, 0x30, 0x00, 0x00, 0x00, 0x00, 0x00, 0x00,
  0x00, 0x00, 0x00, 0x00, 0xe0, 0xf5, 0xff, 0xff, 0xe4, 0xf5, 0xff, 0xff,
  0xe8, 0xf5, 0xff, 0xff, 0xec, 0xf5, 0xff, 0xff, 0x9e, 0xfb, 0xff, 0xff,
  0x04, 0x00, 0x00, 0x00, 0xc0, 0x01, 0x00, 0x00, 0xba, 0xbd, 0x8d, 0x3e,
  0x6f, 0x99, 0xc3, 0x3e, 0xfb, 0xb0, 0x64, 0x3e, 0xe1, 0x12, 0xe1, 0xbc,
  0x47, 0xa9, 0xb8, 0x3a, 0x49, 0x95, 0xb2, 0xbe, 0x26, 0xd8, 0x4e, 0x3f,
  0x6d, 0xae, 0x34, 0xbe, 0x97, 0x1c, 0xde, 0x3d, 0x68, 0x68, 0x15, 0x3f,
  0x83, 0xb1, 0x83, 0xbe, 0x3c, 0xa7, 0x2d, 0xbd, 0xb4, 0x78, 0x9f, 0x3e,
  0x05, 0xa7, 0x38, 0x3f, 0x47, 0x01, 0xcc, 0x3e, 0x78, 0x58, 0xa1, 0x3e,
  0xbf, 0xc2, 0x49, 0x3f, 0xad, 0x68, 0x12, 0xbe, 0xb3, 0x13, 0x10, 0xbe,
  0xca, 0x94, 0x01, 0x3e, 0x6b, 0xd7, 0xbf, 0xbc, 0x94, 0xc0, 0x87, 0xbd,
  0x32, 0x82, 0x8c, 0x3e, 0x33, 0x5c, 0x61, 0x3e, 0xfe, 0x2c, 0x05, 0xbe,
  0x54, 0xea, 0xaf, 0x3e, 0x44, 0xfe, 0xf7, 0xbe, 0x15, 0x3f, 0x74, 0xbe,
  0x17, 0xc1, 0xc7, 0x3e, 0xe7, 0x4b, 0xb3, 0xbd, 0xf1, 0xff, 0xc4, 0x3e,
  0x61, 0x9b, 0x59, 0xbe, 0xce, 0x7f, 0x18, 0xbe, 0xf5, 0xc9, 0x84, 0x3e,
  0xb0, 0xe9, 0x42, 0x3d, 0x15, 0xf7, 0xbd, 0x3e, 0xf2, 0x0f, 0xf1, 0xbd,
  0x81, 0x46, 0x3c, 0x3f, 0xfc, 0xe3, 0xf4, 0x3e, 0x81, 0xf0, 0x1b, 0x3e,
  0xed, 0x03, 0x9d, 0x3c, 0x3c, 0xc5, 0x02, 0x3e, 0xd8, 0xbb, 0x32, 0x3f,
  0x97, 0xfa, 0x2e, 0x3e, 0x05, 0xea, 0x35, 0x3f, 0xa7, 0x67, 0xb4, 0xbe,
  0x0c, 0x34, 0xc7, 0x3e, 0x2a, 0x50, 0xa1, 0xbc, 0xb5, 0xf6, 0x43, 0x3e,
  0x8c, 0x93, 0xa6, 0xbd, 0xe8, 0x79, 0xd3, 0xbe, 0x75, 0x9c, 0xf6, 0xbe,
  0xa0, 0xf2, 0x30, 0x3d, 0xd6, 0x87, 0xb8, 0x3e, 0x36, 0x60, 0x99, 0xbe,
  0x80, 0xd8, 0xbb, 0xbd, 0x2e, 0x0a, 0x89, 0xbe, 0xa6, 0x67, 0xb6, 0x3e,
  0x92, 0x03, 0xc4, 0xbd, 0x35, 0x7a, 0xd6, 0xbe, 0x96, 0xa3, 0xa6, 0xbe,
  0x5b, 0x00, 0xe1, 0xbe, 0x33, 0x50, 0x99, 0xbe, 0x06, 0xe6, 0x13, 0x3f,
  0x27, 0xfc, 0xfe, 0x3e, 0x2a, 0x47, 0x1b, 0xbe, 0x2d, 0x07, 0x8f, 0x3e,
  0x21, 0xc5, 0xc6, 0x3e, 0xdd, 0x66, 0xcc, 0x3e, 0xc7, 0xf1, 0x89, 0x3e,
  0x2e, 0x09, 0x5a, 0xbe, 0xff, 0x80, 0x05, 0x3f, 0xed, 0xad, 0xe0, 0xbe,
  0xfb, 0x77, 0x41, 0xbf, 0x95, 0x81, 0x87, 0xbe, 0xbf, 0xff, 0xad, 0x3e,
  0xd3, 0xe1, 0x41, 0xbb, 0xee, 0xaf, 0x88, 0x3e, 0x26, 0x56, 0x74, 0xbe,
  0x69, 0x47, 0x02, 0xbf, 0xd0, 0x64, 0x96, 0x3d, 0xe0, 0x07, 0x92, 0xbc,
  0x3c, 0x58, 0xc7, 0xbd, 0x0e, 0x69, 0x8f, 0xbe, 0x71, 0x5c, 0x62, 0x3d,
  0x0c, 0x74, 0x91, 0xbe, 0x18, 0x87, 0x26, 0x3e, 0xc0, 0xe7, 0xdb, 0xbe,
  0xf9, 0x0d, 0x83, 0xbe, 0x80, 0xa5, 0xa4, 0x3e, 0x40, 0x2d, 0x5c, 0xbe,
  0xd9, 0x72, 0x27, 0x3e, 0xb6, 0x04, 0x02, 0xbf, 0x13, 0x35, 0xb0, 0x3e,
  0xa7, 0x6d, 0x8c, 0xbe, 0x74, 0x50, 0xe8, 0x3d, 0xba, 0xea, 0xd7, 0xbe,
  0x55, 0x56, 0xd3, 0xbe, 0x88, 0xc6, 0xe6, 0xbd, 0x1c, 0x5d, 0x78, 0xbe,
  0xb0, 0x73, 0x07, 0x3e, 0xc0, 0x06, 0xe6, 0xbe, 0xb7, 0x53, 0x90, 0xbe,
  0x24, 0x96, 0xef, 0x3e, 0x68, 0xd0, 0xed, 0xbd, 0xb8, 0x04, 0x6c, 0xbe,
  0xcd, 0x99, 0xe7, 0xbe, 0xb8, 0x0f, 0xe8, 0x3d, 0x36, 0x0c, 0xac, 0xbe,
  0xb8, 0x65, 0xc8, 0xbd, 0x28, 0xfa, 0xed, 0xbd, 0x98, 0xb8, 0xb8, 0x3d,
  0x6a, 0xfd, 0xff, 0xff, 0x04, 0x00, 0x00, 0x00, 0x40, 0x00, 0x00, 0x00,
  0xdb, 0xaf, 0x15, 0x3e, 0x64, 0x38, 0xb9, 0x3d, 0x45, 0xcc, 0x35, 0x3e,
  0x5f, 0x6d, 0x44, 0xbd, 0x45, 0x9c, 0x6d, 0xbd, 0x97, 0x0a, 0x26, 0x3e,
  0x24, 0x23, 0x0d, 0x3e, 0x00, 0x00, 0x00, 0x00, 0x6f, 0xdd, 0xa8, 0xbb,
  0xce, 0x54, 0x5e, 0x3c, 0x9e, 0xc1, 0x93, 0x3d, 0x00, 0x00, 0x00, 0x00,
  0xef, 0x2e, 0x6b, 0xbc, 0x90, 0xe7, 0x14, 0xbd, 0x00, 0x00, 0x00, 0x00,
  0x00, 0x00, 0x00, 0x00, 0xb6, 0xfd, 0xff, 0xff, 0x04, 0x00, 0x00, 0x00,
  0x20, 0x00, 0x00, 0x00, 0x00, 0x00, 0x00, 0x00, 0x00, 0x00, 0x00, 0x00,
  0x6d, 0xce, 0xb0, 0xbd, 0x19, 0x8f, 0x8e, 0xbd, 0x66, 0xdc, 0xc8, 0xbd,
  0xe0, 0xf8, 0x98, 0xbd, 0x33, 0x7a, 0x24, 0x3e, 0x90, 0x8e, 0x1e, 0x3e,
  0xe2, 0xfd, 0xff, 0xff, 0x04, 0x00, 0x00, 0x00, 0x04, 0x00, 0x00, 0x00,
  0x38, 0xe9, 0x03, 0x3e, 0xf2, 0xfd, 0xff, 0xff, 0x04, 0x00, 0x00, 0x00,
  0x00, 0x02, 0x00, 0x00, 0xfc, 0x67, 0x99, 0x3e, 0x60, 0x46, 0x35, 0xbe,
  0x50, 0x38, 0x48, 0xbe, 0x40, 0xba, 0x82, 0xbd, 0xcc, 0x6c, 0xde, 0xbe,
  0x5c, 0x1d, 0x9b, 0xbe, 0xc4, 0x8c, 0xf0, 0xbe, 0xc0, 0x3f, 0xaf, 0x3e,
  0xc8, 0x80, 0x0d, 0xbe, 0x00, 0x92, 0x7e, 0xbe, 0x90, 0x27, 0x52, 0xbe,
  0xa4, 0xd4, 0xe8, 0xbe, 0x20, 0x11, 0x48, 0xbd, 0xf8, 0x4a, 0xa1, 0x3e,
  0x00, 0xb8, 0x07, 0x3e, 0x60, 0x8c, 0x01, 0xbe, 0x2c, 0x0f, 0x95, 0xbe,
  0x8c, 0x98, 0x90, 0xbe, 0x70, 0x1f, 0x91, 0xbe, 0x0c, 0x71, 0xd4, 0xbe,
  0x10, 0x70, 0xb8, 0xbd, 0x3c, 0x33, 0xc9, 0xbe, 0x20, 0x10, 0x98, 0x3d,
  0x50, 0x3f, 0x73, 0xbe, 0x88, 0xbe, 0xe0, 0xbe, 0xb4, 0xd4, 0xb5, 0xbe,
  0xe0, 0xa3, 0xa9, 0xbd, 0x04, 0x86, 0xbc, 0xbe, 0x30, 0xff, 0xcd, 0xbe,
  0xf0, 0x17, 0x12, 0xbe, 0xe0, 0x32, 0xb0, 0x3e, 0xe8, 0x12, 0x1c, 0xbe,
  0xaf, 0x70, 0x5b, 0x3e, 0x65, 0x97, 0xd8, 0xbe, 0x2a, 0xb9, 0x11, 0x3e,
  0x5d, 0xa0, 0xdd, 0xbe, 0x19, 0xad, 0xe2, 0xbe, 0x96, 0x25, 0x9e, 0x3e,
  0x69, 0xbc, 0x7e, 0x3d, 0x00, 0x76, 0x89, 0xbd, 0x38, 0x04, 0xa3, 0x3e,
  0xf8, 0x95, 0x12, 0xbf, 0x9c, 0x5f, 0xec, 0x3e, 0x80, 0x5a, 0xa8, 0xbe,
  0x00, 0x80, 0xda, 0xb8, 0xf3, 0x80, 0x87, 0xbe, 0x10, 0xda, 0xc7, 0xbe,
  0xf0, 0xab, 0xac, 0x3d, 0x1c, 0x0d, 0xf2, 0xbe, 0x09, 0xcb, 0xce, 0x3e,
  0xe9, 0x36, 0xe9, 0xbe, 0x67, 0xf2, 0xe7, 0xbe, 0x01, 0x88, 0xd9, 0x3e,
  0x50, 0xe5, 0x2c, 0xbe, 0x23, 0x48, 0xd3, 0x3d, 0x70, 0xb3, 0x04, 0xbe,
  0xbd, 0x11, 0x68, 0x3e, 0x2a, 0x87, 0x3d, 0x3e, 0xe4, 0xb4, 0x8b, 0x3d,
  0x20, 0xad, 0x96, 0x3e, 0xd0, 0x96, 0x1c, 0x3e, 0x49, 0x1f, 0xb2, 0x3d,
  0x18, 0x2f, 0x6a, 0x3e, 0x70, 0x27, 0xd9, 0x3e, 0x79, 0x74, 0xfa, 0x3d,
  0xac, 0xda, 0xbb, 0x3e, 0xd7, 0x89, 0xa2, 0x3c, 0x83, 0xc7, 0x16, 0xbe,
  0x81, 0xdd, 0x1b, 0xbd, 0x44, 0xa7, 0x9b, 0x3d, 0x11, 0xbf, 0x0b, 0xbe,
  0x80, 0xbf, 0x35, 0x3c, 0xd0, 0xdd, 0xa1, 0xbd, 0xc1, 0xb7, 0x0d, 0xbf,
  0x68, 0xb5, 0xe8, 0x3e, 0xe8, 0xad, 0x81, 0x3e, 0x48, 0xf3, 0xc4, 0x3e,
  0x70, 0x91, 0x26, 0x3e, 0x00, 0x9e, 0x17, 0x3d, 0x68, 0xef, 0x22, 0x3e,
  0x04, 0xbc, 0x0e, 0x3e, 0xfa, 0x5f, 0x8e, 0x3d, 0x29, 0x1e, 0x5f, 0xbd,
  0xff, 0x6d, 0xa5, 0xbe, 0x10, 0xef, 0x81, 0x3d, 0x67, 0x2d, 0x90, 0xbe,
  0x94, 0x13, 0x65, 0x3d, 0x00, 0xa8, 0x63, 0xbd, 0x10, 0x9d, 0x9f, 0xbe,
  0xbd, 0x10, 0x2e, 0xbc, 0xbe, 0xb8, 0x7d, 0x3c, 0x30, 0x6a, 0xaf, 0xbd,
  0xb8, 0xce, 0x35, 0xbe, 0x92, 0xf1, 0xa4, 0x3e, 0x38, 0xf7, 0xb3, 0xbe,
  0x20, 0x6a, 0x41, 0x3e, 0x4a, 0x18, 0x52, 0x3f, 0x7b, 0xf8, 0x21, 0x3f,
  0x04, 0x8b, 0x25, 0x3f, 0x38, 0x03, 0xa2, 0xbe, 0xdd, 0xe8, 0x98, 0x3d,
  0x95, 0x3c, 0x05, 0x3f, 0x55, 0xc3, 0x2a, 0x3f, 0xc0, 0x5d, 0xeb, 0xbd,
  0xac, 0x8e, 0xb9, 0xbe, 0x42, 0x91, 0x44, 0x3d, 0x16, 0x20, 0x0b, 0xbf,
  0xc4, 0x2f, 0x84, 0x3e, 0x5c, 0x71, 0xef, 0xbd, 0xdc, 0x5d, 0x91, 0xbd,
  0xc0, 0xff, 0xbf, 0xbc, 0xa0, 0xf5, 0x27, 0xbd, 0x4e, 0xe8, 0x50, 0x3f,
  0x57, 0x01, 0x6a, 0x3e, 0x6c, 0x2a, 0x24, 0x3f, 0x0d, 0x2c, 0x39, 0xbe,
  0x93, 0x43, 0x08, 0x3f, 0xb1, 0xc8, 0xd9, 0x3e, 0x5f, 0x11, 0x95, 0x3e,
  0xc4, 0x04, 0xe1, 0x3e, 0xa0, 0xf3, 0xd9, 0xbe, 0x7b, 0xca, 0x6c, 0x3e,
  0x82, 0xe2, 0x0e, 0xbf, 0x70, 0x48, 0x9d, 0x3d, 0x2c, 0x9f, 0xcc, 0xbe,
  0xb4, 0x16, 0x13, 0xbe, 0xe0, 0x9e, 0x40, 0x3d, 0x30, 0x4d, 0xab, 0x3e,
  0x00, 0x00, 0x06, 0x00, 0x08, 0x00, 0x04, 0x00, 0x06, 0x00, 0x00, 0x00,
  0x04, 0x00, 0x00, 0x00, 0x20, 0x00, 0x00, 0x00, 0x40, 0xa5, 0x6e, 0x3e,
  0xfc, 0x73, 0x4e, 0xbe, 0x63, 0x70, 0xb0, 0xbe, 0xc3, 0xf4, 0x54, 0xbe,
  0x13, 0x0b, 0x35, 0xbf, 0x8a, 0xbc, 0x40, 0xbf, 0xa1, 0x93, 0x6b, 0x3f,
  0x3c, 0x47, 0xa7, 0x3e, 0x84, 0xfa, 0xff, 0xff, 0x88, 0xfa, 0xff, 0xff,
  0x0f, 0x00, 0x00, 0x00, 0x4d, 0x4c, 0x49, 0x52, 0x20, 0x43, 0x6f, 0x6e,
  0x76, 0x65, 0x72, 0x74, 0x65, 0x64, 0x2e, 0x00, 0x01, 0x00, 0x00, 0x00,
  0x14, 0x00, 0x00, 0x00, 0x00, 0x00, 0x0e, 0x00, 0x18, 0x00, 0x14, 0x00,
  0x10, 0x00, 0x0c, 0x00, 0x08, 0x00, 0x04, 0x00, 0x0e, 0x00, 0x00, 0x00,
  0x14, 0x00, 0x00, 0x00, 0x1c, 0x00, 0x00, 0x00, 0x08, 0x01, 0x00, 0x00,
  0x0c, 0x01, 0x00, 0x00, 0x10, 0x01, 0x00, 0x00, 0x04, 0x00, 0x00, 0x00,
  0x6d, 0x61, 0x69, 0x6e, 0x00, 0x00, 0x00, 0x00, 0x04, 0x00, 0x00, 0x00,
  0xb0, 0x00, 0x00, 0x00, 0x68, 0x00, 0x00, 0x00, 0x34, 0x00, 0x00, 0x00,
  0x10, 0x00, 0x00, 0x00, 0x00, 0x00, 0x0a, 0x00, 0x10, 0x00, 0x0c, 0x00,
  0x08, 0x00, 0x04, 0x00, 0x0a, 0x00, 0x00, 0x00, 0x0c, 0x00, 0x00, 0x00,
  0x10, 0x00, 0x00, 0x00, 0x01, 0x00, 0x00, 0x00, 0x01, 0x00, 0x00, 0x00,
  0x0a, 0x00, 0x00, 0x00, 0x01, 0x00, 0x00, 0x00, 0x09, 0x00, 0x00, 0x00,
  0x9a, 0xff, 0xff, 0xff, 0x10, 0x00, 0x00, 0x00, 0x00, 0x00, 0x00, 0x08,
  0x0c, 0x00, 0x00, 0x00, 0x10, 0x00, 0x00, 0x00, 0x30, 0xfb, 0xff, 0xff,
  0x01, 0x00, 0x00, 0x00, 0x09, 0x00, 0x00, 0x00, 0x03, 0x00, 0x00, 0x00,
  0x08, 0x00, 0x00, 0x00, 0x01, 0x00, 0x00, 0x00, 0x03, 0x00, 0x00, 0x00,
  0xca, 0xff, 0xff, 0xff, 0x10, 0x00, 0x00, 0x00, 0x00, 0x00, 0x00, 0x08,
  0x10, 0x00, 0x00, 0x00, 0x14, 0x00, 0x00, 0x00, 0xba, 0xff, 0xff, 0xff,
  0x00, 0x00, 0x00, 0x01, 0x01, 0x00, 0x00, 0x00, 0x08, 0x00, 0x00, 0x00,
  0x03, 0x00, 0x00, 0x00, 0x07, 0x00, 0x00, 0x00, 0x02, 0x00, 0x00, 0x00,
  0x04, 0x00, 0x00, 0x00, 0x00, 0x00, 0x0e, 0x00, 0x16, 0x00, 0x00, 0x00,
  0x10, 0x00, 0x0c, 0x00, 0x0b, 0x00, 0x04, 0x00, 0x0e, 0x00, 0x00, 0x00,
  0x18, 0x00, 0x00, 0x00, 0x00, 0x00, 0x00, 0x08, 0x18, 0x00, 0x00, 0x00,
  0x1c, 0x00, 0x00, 0x00, 0x00, 0x00, 0x06, 0x00, 0x08, 0x00, 0x07, 0x00,
  0x06, 0x00, 0x00, 0x00, 0x00, 0x00, 0x00, 0x01, 0x01, 0x00, 0x00, 0x00,
  0x07, 0x00, 0x00, 0x00, 0x03, 0x00, 0x00, 0x00, 0x00, 0x00, 0x00, 0x00,
  0x06, 0x00, 0x00, 0x00, 0x05, 0x00, 0x00, 0x00, 0x01, 0x00, 0x00, 0x00,
  0x0a, 0x00, 0x00, 0x00, 0x01, 0x00, 0x00, 0x00, 0x00, 0x00, 0x00, 0x00,
  0x0b, 0x00, 0x00, 0x00, 0xf8, 0x03, 0x00, 0x00, 0xa0, 0x03, 0x00, 0x00,
  0x48, 0x03, 0x00, 0x00, 0x0c, 0x03, 0x00, 0x00, 0xb0, 0x02, 0x00, 0x00,
  0x58, 0x02, 0x00, 0x00, 0x0c, 0x02, 0x00, 0x00, 0x78, 0x01, 0x00, 0x00,
  0xdc, 0x00, 0x00, 0x00, 0x60, 0x00, 0x00, 0x00, 0x04, 0x00, 0x00, 0x00,
  0x4a, 0xfc, 0xff, 0xff, 0x00, 0x00, 0x00, 0x01, 0x14, 0x00, 0x00, 0x00,
  0x1c, 0x00, 0x00, 0x00, 0x1c, 0x00, 0x00, 0x00, 0x0b, 0x00, 0x00, 0x00,
  0x34, 0x00, 0x00, 0x00, 0x02, 0x00, 0x00, 0x00, 0xff, 0xff, 0xff, 0xff,
  0x01, 0x00, 0x00, 0x00, 0x34, 0xfc, 0xff, 0xff, 0x1b, 0x00, 0x00, 0x00,
  0x53, 0x74, 0x61, 0x74, 0x65, 0x66, 0x75, 0x6c, 0x50, 0x61, 0x72, 0x74,
  0x69, 0x74, 0x69, 0x6f, 0x6e, 0x65, 0x64, 0x43, 0x61, 0x6c, 0x6c, 0x5f,
  0x31, 0x3a, 0x30, 0x00, 0x02, 0x00, 0x00, 0x00, 0x01, 0x00, 0x00, 0x00,
  0x01, 0x00, 0x00, 0x00, 0xa2, 0xfc, 0xff, 0xff, 0x00, 0x00, 0x00, 0x01,
  0x14, 0x00, 0x00, 0x00, 0x1c, 0x00, 0x00, 0x00, 0x1c, 0x00, 0x00, 0x00,
  0x0a, 0x00, 0x00, 0x00, 0x54, 0x00, 0x00, 0x00, 0x02, 0x00, 0x00, 0x00,
  0xff, 0xff, 0xff, 0xff, 0x01, 0x00, 0x00, 0x00, 0x8c, 0xfc, 0xff, 0xff,
  0x38, 0x00, 0x00, 0x00, 0x73, 0x65, 0x71, 0x75, 0x65, 0x6e, 0x74, 0x69,
  0x61, 0x6c, 0x5f, 0x31, 0x2f, 0x64, 0x65, 0x6e, 0x73, 0x65, 0x5f, 0x32,
  0x5f, 0x31, 0x2f, 0x4d, 0x61, 0x74, 0x4d, 0x75, 0x6c, 0x3b, 0x73, 0x65,
  0x71, 0x75, 0x65, 0x6e, 0x74, 0x69, 0x61, 0x6c, 0x5f, 0x31, 0x2f, 0x64,
  0x65, 0x6e, 0x73, 0x65, 0x5f, 0x32, 0x5f, 0x31, 0x2f, 0x41, 0x64, 0x64,
  0x00, 0x00, 0x00, 0x00, 0x02, 0x00, 0x00, 0x00, 0x01, 0x00, 0x00, 0x00,
  0x01, 0x00, 0x00, 0x00, 0x1a, 0xfd, 0xff, 0xff, 0x00, 0x00, 0x00, 0x01,
  0x14, 0x00, 0x00, 0x00, 0x1c, 0x00, 0x00, 0x00, 0x1c, 0x00, 0x00, 0x00,
  0x09, 0x00, 0x00, 0x00, 0x74, 0x00, 0x00, 0x00, 0x02, 0x00, 0x00, 0x00,
  0xff, 0xff, 0xff, 0xff, 0x08, 0x00, 0x00, 0x00, 0x04, 0xfd, 0xff, 0xff,
  0x58, 0x00, 0x00, 0x00, 0x73, 0x65, 0x71, 0x75, 0x65, 0x6e, 0x74, 0x69,
  0x61, 0x6c, 0x5f, 0x31, 0x2f, 0x64, 0x65, 0x6e, 0x73, 0x65, 0x5f, 0x31,
  0x5f, 0x32, 0x2f, 0x4d, 0x61, 0x74, 0x4d, 0x75, 0x6c, 0x3b, 0x73, 0x65,
  0x71, 0x75, 0x65, 0x6e, 0x74, 0x69, 0x61, 0x6c, 0x5f, 0x31, 0x2f, 0x64,
  0x65, 0x6e, 0x73, 0x65, 0x5f, 0x31, 0x5f, 0x32, 0x2f, 0x52, 0x65, 0x6c,
  0x75, 0x3b, 0x73, 0x65, 0x71, 0x75, 0x65, 0x6e, 0x74, 0x69, 0x61, 0x6c,
  0x5f, 0x31, 0x2f, 0x64, 0x65, 0x6e, 0x73, 0x65, 0x5f, 0x31, 0x5f, 0x32,
  0x2f, 0x42, 0x69, 0x61, 0x73, 0x41, 0x64, 0x64, 0x00, 0x00, 0x00, 0x00,
  0x02, 0x00, 0x00, 0x00, 0x01, 0x00, 0x00, 0x00, 0x08, 0x00, 0x00, 0x00,
  0xb2, 0xfd, 0xff, 0xff, 0x00, 0x00, 0x00, 0x01, 0x14, 0x00, 0x00, 0x00,
  0x1c, 0x00, 0x00, 0x00, 0x1c, 0x00, 0x00, 0x00, 0x08, 0x00, 0x00, 0x00,
  0x6c, 0x00, 0x00, 0x00, 0x02, 0x00, 0x00, 0x00, 0xff, 0xff, 0xff, 0xff,
  0x10, 0x00, 0x00, 0x00, 0x9c, 0xfd, 0xff, 0xff, 0x52, 0x00, 0x00, 0x00,
  0x73, 0x65, 0x71, 0x75, 0x65, 0x6e, 0x74, 0x69, 0x61, 0x6c, 0x5f, 0x31,
  0x2f, 0x64, 0x65, 0x6e, 0x73, 0x65, 0x5f, 0x31, 0x2f, 0x4d, 0x61, 0x74,
  0x4d, 0x75, 0x6c, 0x3b, 0x73, 0x65, 0x71, 0x75, 0x65, 0x6e, 0x74, 0x69,
  0x61, 0x6c, 0x5f, 0x31, 0x2f, 0x64, 0x65, 0x6e, 0x73, 0x65, 0x5f, 0x31,
  0x2f, 0x52, 0x65, 0x6c, 0x75, 0x3b, 0x73, 0x65, 0x71, 0x75, 0x65, 0x6e,
  0x74, 0x69, 0x61, 0x6c, 0x5f, 0x31, 0x2f, 0x64, 0x65, 0x6e, 0x73, 0x65,
  0x5f, 0x31, 0x2f, 0x42, 0x69, 0x61, 0x73, 0x41, 0x64, 0x64, 0x00, 0x00,
  0x02, 0x00, 0x00, 0x00, 0x01, 0x00, 0x00, 0x00, 0x10, 0x00, 0x00, 0x00,
  0x96, 0xfe, 0xff, 0xff, 0x00, 0x00, 0x00, 0x01, 0x10, 0x00, 0x00, 0x00,
  0x10, 0x00, 0x00, 0x00, 0x07, 0x00, 0x00, 0x00, 0x28, 0x00, 0x00, 0x00,
  0x1c, 0xfe, 0xff, 0xff, 0x1b, 0x00, 0x00, 0x00, 0x73, 0x65, 0x71, 0x75,
  0x65, 0x6e, 0x74, 0x69, 0x61, 0x6c, 0x5f, 0x31, 0x2f, 0x64, 0x65, 0x6e,
  0x73, 0x65, 0x5f, 0x31, 0x2f, 0x4d, 0x61, 0x74, 0x4d, 0x75, 0x6c, 0x00,
  0x02, 0x00, 0x00, 0x00, 0x10, 0x00, 0x00, 0x00, 0x07, 0x00, 0x00, 0x00,
  0xde, 0xfe, 0xff, 0xff, 0x00, 0x00, 0x00, 0x01, 0x10, 0x00, 0x00, 0x00,
  0x10, 0x00, 0x00, 0x00, 0x06, 0x00, 0x00, 0x00, 0x38, 0x00, 0x00, 0x00,
  0x64, 0xfe, 0xff, 0xff, 0x2b, 0x00, 0x00, 0x00, 0x73, 0x65, 0x71, 0x75,
  0x65, 0x6e, 0x74, 0x69, 0x61, 0x6c, 0x5f, 0x31, 0x2f, 0x64, 0x65, 0x6e,
  0x73, 0x65, 0x5f, 0x31, 0x2f, 0x42, 0x69, 0x61, 0x73, 0x41, 0x64, 0x64,
  0x2f, 0x52, 0x65, 0x61, 0x64, 0x56, 0x61, 0x72, 0x69, 0x61, 0x62, 0x6c,
  0x65, 0x4f, 0x70, 0x00, 0x01, 0x00, 0x00, 0x00, 0x10, 0x00, 0x00, 0x00,
  0x32, 0xff, 0xff, 0xff, 0x00, 0x00, 0x00, 0x01, 0x10, 0x00, 0x00, 0x00,
  0x10, 0x00, 0x00, 0x00, 0x05, 0x00, 0x00, 0x00, 0x3c, 0x00, 0x00, 0x00,
  0xb8, 0xfe, 0xff, 0xff, 0x2d, 0x00, 0x00, 0x00, 0x73, 0x65, 0x71, 0x75,
  0x65, 0x6e, 0x74, 0x69, 0x61, 0x6c, 0x5f, 0x31, 0x2f, 0x64, 0x65, 0x6e,
  0x73, 0x65, 0x5f, 0x31, 0x5f, 0x32, 0x2f, 0x42, 0x69, 0x61, 0x73, 0x41,
  0x64, 0x64, 0x2f, 0x52, 0x65, 0x61, 0x64, 0x56, 0x61, 0x72, 0x69, 0x61,
  0x62, 0x6c, 0x65, 0x4f, 0x70, 0x00, 0x00, 0x00, 0x01, 0x00, 0x00, 0x00,
  0x08, 0x00, 0x00, 0x00, 0x8a, 0xff, 0xff, 0xff, 0x00, 0x00, 0x00, 0x01,
  0x10, 0x00, 0x00, 0x00, 0x10, 0x00, 0x00, 0x00, 0x04, 0x00, 0x00, 0x00,
  0x1c, 0x00, 0x00, 0x00, 0x10, 0xff, 0xff, 0xff, 0x0f, 0x00, 0x00, 0x00,
  0x61, 0x72, 0x69, 0x74, 0x68, 0x2e, 0x63, 0x6f, 0x6e, 0x73, 0x74, 0x61,
  0x6e, 0x74, 0x32, 0x00, 0x01, 0x00, 0x00, 0x00, 0x01, 0x00, 0x00, 0x00,
  0xc2, 0xff, 0xff, 0xff, 0x00, 0x00, 0x00, 0x01, 0x10, 0x00, 0x00, 0x00,
  0x10, 0x00, 0x00, 0x00, 0x03, 0x00, 0x00, 0x00, 0x1c, 0x00, 0x00, 0x00,
  0x48, 0xff, 0xff, 0xff, 0x0f, 0x00, 0x00, 0x00, 0x61, 0x72, 0x69, 0x74,
  0x68, 0x2e, 0x63, 0x6f, 0x6e, 0x73, 0x74, 0x61, 0x6e, 0x74, 0x31, 0x00,
  0x02, 0x00, 0x00, 0x00, 0x08, 0x00, 0x00, 0x00, 0x10, 0x00, 0x00, 0x00,
  0x00, 0x00, 0x16, 0x00, 0x18, 0x00, 0x14, 0x00, 0x00, 0x00, 0x10, 0x00,
  0x0c, 0x00, 0x08, 0x00, 0x00, 0x00, 0x00, 0x00, 0x00, 0x00, 0x07, 0x00,
  0x16, 0x00, 0x00, 0x00, 0x00, 0x00, 0x00, 0x01, 0x10, 0x00, 0x00, 0x00,
  0x10, 0x00, 0x00, 0x00, 0x02, 0x00, 0x00, 0x00, 0x1c, 0x00, 0x00, 0x00,
  0x9c, 0xff, 0xff, 0xff, 0x0e, 0x00, 0x00, 0x00, 0x61, 0x72, 0x69, 0x74,
  0x68, 0x2e, 0x63, 0x6f, 0x6e, 0x73, 0x74, 0x61, 0x6e, 0x74, 0x00, 0x00,
  0x02, 0x00, 0x00, 0x00, 0x01, 0x00, 0x00, 0x00, 0x08, 0x00, 0x00, 0x00,
  0x00, 0x00, 0x16, 0x00, 0x1c, 0x00, 0x18, 0x00, 0x00, 0x00, 0x14, 0x00,
  0x10, 0x00, 0x0c, 0x00, 0x00, 0x00, 0x00, 0x00, 0x08, 0x00, 0x07, 0x00,
  0x16, 0x00, 0x00, 0x00, 0x00, 0x00, 0x00, 0x01, 0x14, 0x00, 0x00, 0x00,
  0x20, 0x00, 0x00, 0x00, 0x20, 0x00, 0x00, 0x00, 0x01, 0x00, 0x00, 0x00,
  0x3c, 0x00, 0x00, 0x00, 0x02, 0x00, 0x00, 0x00, 0xff, 0xff, 0xff, 0xff,
  0x07, 0x00, 0x00, 0x00, 0x04, 0x00, 0x04, 0x00, 0x04, 0x00, 0x00, 0x00,
  0x1d, 0x00, 0x00, 0x00, 0x73, 0x65, 0x72, 0x76, 0x69, 0x6e, 0x67, 0x5f,
  0x64, 0x65, 0x66, 0x61, 0x75, 0x6c, 0x74, 0x5f, 0x69, 0x6e, 0x70, 0x75,
  0x74, 0x5f, 0x6c, 0x61, 0x79, 0x65, 0x72, 0x3a, 0x30, 0x00, 0x00, 0x00,
  0x02, 0x00, 0x00, 0x00, 0x01, 0x00, 0x00, 0x00, 0x07, 0x00, 0x00, 0x00,
  0x02, 0x00, 0x00, 0x00, 0x20, 0x00, 0x00, 0x00, 0x04, 0x00, 0x00, 0x00,
  0xf4, 0xff, 0xff, 0xff, 0x0e, 0x00, 0x00, 0x00, 0x00, 0x00, 0x00, 0x0e,
  0x0c, 0x00, 0x0c, 0x00, 0x0b, 0x00, 0x00, 0x00, 0x00, 0x00, 0x04, 0x00,
  0x0c, 0x00, 0x00, 0x00, 0x09, 0x00, 0x00, 0x00, 0x00, 0x00, 0x00, 0x09
};
unsigned int temperature_prediction_tflite_len = 3156;
